#include <cstddef>
namespace nano {
	unsigned char nano_bootstrap_weights_beta[] = {0x00,0x00,0x00,0x00,0x00,0x00,0x00,0x00,0x00,0x00,0x00,0x00,0x03,0x08,0x18,0x2f,0x25,0x9a,0x43,0xab,0xdb,0x77,0x9e,0x97,0x45,0x2e,0x18,0x8b,0xa3,0xeb,0x95,0x1b,0x41,0xc9,0x61,0xd3,0x31,0x8c,0xa6,0xb9,0x25,0x38,0x0f,0x4d,0x99,0xf0,0x57,0x7a,0x34,0xa9,0x82,0x81,0x78,0xae,0x61,0x2b,0xa6,0x13,0xcf,0x34,0x7f,0xff,0xff,0xff,0x25,0x9a,0x47,0xde,0x59,0x85,0x47,0x77,0x15,0x9f,0x17,0x81,0xc7,0xfd,0x44,0xdf,0x07,0x75,0x67,0x1e,0x50,0x2a,0xb0,0xcf,0xdb,0xcb,0xc2,0x37,0x18,0x22,0x31,0x17,0x0b,0x87,0xaf,0x9a,0xba,0x43,0xb3,0x7a,0xfe,0x9e,0x77,0x0b,0x8b,0x36,0x7f,0xeb,0x25,0x9a,0x40,0x11,0xe6,0xca,0xd1,0x06,0x9a,0x97,0xc0,0x2c,0x3c,0x1f,0x2a,0xaa,0x32,0xbc,0x09,0x3c,0x8d,0x82,0xee,0x13,0x34,0xf9,0x37,0xa4,0xbe,0x80,0x30,0x71,0x0b,0x87,0x74,0x70,0x58,0x85,0x06,0x74,0x3e,0xc5,0x9e,0x52,0x90,0x00,0x00,0x00,0xb5,0x1b,0x53,0x34,0x2d,0x02,0x94,0xc6,0xc9,0xec,0x20,0xf0,0x85,0x60,0x82,0x92,0x2b,0x5e,0xf0,0x4f,0xdd,0xc4,0x58,0x5b,0x62,0xbc,0x19,0xaf,0xbc,0xb3,0x5d,0xee,0x0b,0x11,0xfc,0x7c,0xbc,0x3e,0x5a,0x3a,0x76,0x4e,0x3b,0xff,0x57,0x3d,0x36,0x41,0x62,0xa9,0xae,0x9c,0xf8,0xe9,0x1b,0x48,0x0c,0xb9,0xd4,0x10,0x7c,0xbe,0xe3,0xc6,0x39,0x18,0x77,0x2d,0x3f,0xb8,0xb6,0x87,0xd2,0xb2,0x0c,0x0d,0x9c,0x59,0x09,0x0f,0x0a,0x06,0x44,0xd8,0x8d,0xbb,0x05,0x60,0xcc,0x1b,0xc5,0x5a,0x5d,0xaf,0x2f,0x08,0x4a,0x1a,0xd3,0x1e,0x21,0xe7,0x09,0xe6,0x9e,0x8e,0xdc,0x00,0xd4,0x46,0x24,0x71,0xe0,0xd6,0x39,0xbf,0x68,0x95,0x19,0x3c,0x81,0x39,0xf7,0x85,0x2f,0x50,0xa0,0x31,0x07,0xc4,0xfb,0x2f,0x56,0x44,0x92,0x24,0x42,0xec,0x67,0xcb,0xef,0x1f,0xea,0xad,0xb7,0x08,0x91,0xdb,0x12,0xba,0x08,0xe1,0xbb,0x41,0x25,0x8b,0xf6,0x8b,0xe0,0x61,0xe6,0xa2,0x02,0xb9,0x12,0x3f,0x23,0x94,0x6e,0x4a,0x78,0xb5,0x4f,0xdb,0xb0,0xb1,0x07,0xc4,0xfb,0x2f,0x56,0x44,0x92,0x24,0x42,0xec,0x67,0xc8,0xdb,0x3f,0x6d,0x51,0xd2,0xbd,0x39,0xf1,0x7a,0xa2,0x64,0x0d,0x4e,0xc4,0x89,0xec,0x95,0xb7,0x6d,0x4e,0x2a,0x5d,0xc8,0xb9,0xac,0xaa,0xc9,0xb2,0x9d,0xc9,0xb9,0xf4,0xda,0xf7,0xdc,0x7e,0x07,0xc4,0xfb,0x2f,0x56,0x44,0x92,0x24,0x42,0xec,0x67,0xc3,0xa7,0x5e,0xf9,0xba,0x71,0x18,0x44,0x1b,0xf6,0x91,0xb8,0xf7,0x9f,0x51,0xef,0x7d,0x66,0x4e,0x0a,0x08,0xfa,0xd9,0x30,0x26,0x8e,0x68,0x46,0xbc,0xf5,0x9c,0xaa,0xaf,0xaf,0x24,0xbd,0xb0,0x07,0x04,0x63,0x60,0xda,0x7b,0x8b,0x0e,0x8f,0xa0,0xc8,0xa9,0xd9,0x21,0xeb,0x36,0x62,0x0a,0x94,0x2c,0x3c,0xcd,0x8c,0xfe,0xab,0xd5,0x38,0xf1,0x9c,0x6d,0x99,0xf9,0x0c,0xd9,0x79,0x29,0xca,0x39,0xcb,0x35,0xac,0xe4,0x2d,0x86,0x20,0x19,0x4e,0x37,0x07,0x04,0x25,0x99,0xbe,0xa9,0xa7,0x2c,0x75,0xb0,0xec,0x14,0x10,0x53,0x7a,0x8a,0xc7,0x79,0xd0,0xb1,0xe1,0xd2,0x9c,0xec,0x16,0xb7,0xc0,0x79,0x24,0xcc,0xeb,0x22,0x83,0xd3,0x99,0xb5,0xb4,0x6c,0x11,0xe4,0xcf,0x02,0x8f,0x37,0xdf,0xd7,0xff,0x6d,0x05,0xc3,0xba,0x38,0x3c,0x6a,0x6a,0x69,0x3e,0x75,0x54,0x14,0x4a,0x71,0xde,0xdf,0xe7,0x08,0xf0,0xd3,0x44,0xa9,0x4a,0x6c,0x4a,0xc4,0x10,0xc4,0xef,0x3b,0xf6,0xdb,0x29,0x40,0xc1,0x81,0x51,0x62,0x4b,0x01,0xf1,0xa5,0x7e,0xde,0x70,0x7f,0x4d,0xba,0x04,0x02,0x81,0xee,0x33,0xb4,0x4f,0x76,0x08,0xee,0x2b,0x06,0xb6,0x95,0x19,0x45,0x23,0x0e,0x43,0xbb,0x84,0xd3,0x5b,0xe1,0xa9,0xed,0xed,0x40,0xb3,0x12,0xbe,0xde,0x46,0x77,0x0e,0x3a,0x5e,0x33,0xb3,0x8b,0xc1,0xd9,0xc6,0x7f,0x95,0x65,0x8c,0x1f,0x03,0x01,0xe1,0x72,0xa6,0xc7,0x3b,0x98,0x86,0xb2,0x9d,0x92,0xb0,0x00,0x00,0x00,0x25,0x9a,0x40,0x65,0x61,0x44,0xfa,0xa1,0x6d,0x2a,0x85,0x16,0xf7,0xbe,0x9c,0x74,0xa6,0x3c,0x6c,0xa3,0x99,0x96,0x0e,0xdb,0x74,0x7d,0x14,0x4a,0xbb,0x0f,0x7a,0xbd,0x03,0x00,0xe5,0xe4,0x16,0x0d,0x7a,0x1b,0xf9,0xba,0xe0,0x38,0x10,0x00,0x00,0x00, 0x00};
	size_t nano_bootstrap_weights_beta_size = sizeof(nano_bootstrap_weights_beta) - 1;
}
