#include <cstddef>
namespace nano {
	unsigned char nano_bootstrap_weights_live[] = {0x00,0x00,0x00,0x00,0x00,0x00,0x00,0x00,0x00,0x00,0x00,0x00,0x08,0x74,0xc0,0x4f,0x24,0xfc,0x76,0xde,0xf0,0x9d,0x1a,0x35,0xf5,0x33,0x86,0xae,0x7a,0xc9,0x81,0x34,0x5b,0x4c,0x8b,0xf9,0xdd,0x47,0xac,0x06,0x8b,0x30,0x9e,0xf7,0xc5,0x90,0x39,0x13,0x0c,0x14,0xf5,0x05,0x6a,0x2e,0x54,0x33,0x20,0x1b,0x42,0x02,0x46,0x18,0xc8,0x00,0x96,0x13,0xb6,0x45,0xf9,0x01,0x6d,0x43,0xe5,0x7e,0x32,0xe8,0x38,0x3b,0x6f,0x65,0x0a,0x49,0x72,0xab,0xf5,0xa1,0x8d,0xdf,0x2d,0x32,0xcc,0xab,0x55,0xdb,0xd2,0xdd,0x08,0x1e,0xc8,0xf8,0x79,0x3c,0x24,0xd0,0x00,0xe8,0xb3,0xa1,0xd5,0xc0,0xf8,0x1c,0xc7,0x98,0xcf,0xf4,0xf1,0x13,0x12,0x04,0xf6,0x5c,0x4d,0x22,0xc3,0xe6,0x31,0x6f,0x26,0xf3,0x80,0xee,0x06,0x16,0xaa,0xdb,0xab,0xea,0x12,0x68,0xfd,0x75,0xfb,0x05,0x05,0x4b,0x10,0x9b,0x17,0x75,0x2c,0x30,0x78,0x84,0x41,0xab,0x6c,0xf9,0xba,0x27,0x1e,0xf5,0x13,0xb5,0xfb,0x57,0xd7,0x69,0x3f,0xf6,0x7d,0x2a,0xda,0x3e,0xac,0xf7,0x57,0xd2,0xe1,0x41,0xdd,0x3a,0x91,0xa3,0x2a,0xfc,0x4d,0x5c,0xee,0x2c,0xe5,0x0e,0x04,0x52,0xb2,0xf4,0x3a,0xfc,0x0e,0x9c,0x92,0xe6,0xfb,0x4b,0x87,0x90,0xf5,0x1d,0x52,0x14,0x8a,0x0b,0x87,0x84,0xac,0x7b,0x6c,0x7d,0xea,0x55,0xc0,0xe1,0xd9,0xf7,0xce,0x34,0xa6,0xc3,0x36,0x9f,0x50,0xbf,0xaf,0x00,0x43,0x82,0x54,0xf3,0x49,0xa3,0x03,0xe1,0x58,0xf7,0xe8,0x60,0xa3,0x06,0x1a,0x22,0x91,0x8a,0x57,0xba,0x72,0x1d,0x51,0x1a,0xc4,0x37,0x30,0x54,0x3f,0x18,0xc0,0x78,0x36,0xbb,0x2f,0x61,0x03,0x2b,0x16,0xed,0xa4,0x6f,0x10,0x77,0x9c,0xa0,0xf3,0x30,0xc9,0xb6,0x63,0x88,0x10,0x60,0x03,0xbc,0x6a,0xe2,0xa2,0x9c,0x34,0x9f,0x71,0xac,0x35,0x54,0x0b,0x41,0x1b,0x41,0xa3,0x0e,0x0a,0x32,0xed,0x41,0xc8,0x60,0x7a,0xa9,0x21,0x28,0x43,0x39,0x2e,0x85,0x3f,0xcb,0xcb,0x4e,0x7c,0xb1,0x94,0xe3,0x5c,0x94,0xf0,0x7f,0x91,0xde,0x59,0xef,0x03,0x98,0xe4,0x9c,0x14,0xd0,0x16,0xbf,0x35,0x74,0xa7,0xb4,0x4a,0x85,0xea,0x0f,0xd7,0xaf,0xab,0xd1,0xdb,0x1d,0x4c,0xaa,0x6d,0x69,0x3e,0xc5,0xe2,0x1e,0x8d,0xf5,0x62,0xfb,0xbd,0xf1,0x35,0xfd,0x6d,0x21,0xeb,0x0a,0x69,0x3d,0x6d,0x71,0x6e,0xcd,0x03,0x29,0x30,0xb7,0xa4,0xd8,0x3e,0xae,0x86,0xb5,0x4e,0xad,0x5f,0xe2,0xb4,0x79,0xd9,0x5f,0xee,0xeb,0x8b,0x08,0xda,0x59,0x88,0x21,0xa7,0x21,0x99,0x14,0x1e,0xd7,0x5d,0x58,0x60,0xbc,0xcb,0x0c,0xa4,0xe0,0x41,0xe1,0x38,0x72,0x07,0xf9,0xc9,0x93,0x02,0x9c,0x61,0xff,0xd9,0x8c,0xff,0x93,0x3c,0xfd,0x6e,0x06,0xda,0x2f,0x5d,0x23,0xe3,0x82,0xdd,0x09,0xec,0x8c,0xaf,0xc2,0x42,0x7c,0xf8,0x17,0xe9,0xaf,0xe1,0xf3,0x72,0xce,0x81,0x08,0x5a,0xb4,0xfe,0xb1,0xf3,0xde,0x1f,0x25,0xee,0x81,0x8e,0x5d,0x02,0x76,0xba,0x4d,0x9d,0xc4,0x30,0x30,0xa1,0xf6,0x3f,0x20,0xf6,0xfe,0x13,0xcc,0x63,0x23,0xc6,0xbc,0xca,0x82,0xbc,0x8e,0x88,0xaf,0x9f,0xd6,0x5c,0xaf,0xef,0x2e,0xe4,0x19,0x24,0x88,0x1b,0x41,0x1b,0xd1,0x08,0x55,0x16,0xd6,0x42,0x7e,0x9c,0x89,0x02,0x30,0x03,0x44,0x38,0xf2,0x33,0x2e,0xd7,0x31,0x7b,0x3a,0xed,0xf4,0x44,0xfa,0x43,0x7f,0x01,0xa8,0x27,0x0b,0x8d,0xb1,0xdc,0xd2,0xd8,0x19,0x35,0xe5,0xe7,0x77,0x85,0xe7,0x4f,0x76,0xc6,0xe4,0x41,0xd1,0x72,0x1b,0x7e,0xc2,0xe9,0x48,0x51,0xcb,0x01,0x6b,0x99,0x24,0x3d,0x49,0x89,0x6b,0x4e,0x5b,0x63,0xb7,0x9a,0x62,0xfd,0x97,0x74,0xa9,0x87,0xc8,0x75,0x32,0x67,0x1d,0x6a,0x57,0x76,0x58,0xe1,0x25,0xf7,0xb7,0xdc,0xb8,0xba,0x35,0xee,0xdc,0x17,0xc0,0x95,0xfe,0x49,0x28,0x97,0x23,0xca,0xdd,0x01,0x68,0x96,0xf1,0x7d,0x52,0x01,0xf9,0x56,0x34,0xb3,0xb2,0x74,0x1f,0x1f,0x92,0x67,0x55,0x6d,0x31,0xdd,0xfc,0x2a,0x44,0x0b,0xf6,0x14,0x75,0x01,0x44,0x9b,0x4c,0xb9,0x57,0x22,0x78,0xd0,0x34,0xee,0x68,0x6a,0x6b,0xee,0x29,0x85,0x16,0x81,0xdf,0x01,0x5a,0xf5,0x04,0xe4,0x14,0x11,0xbc,0xba,0x1c,0x8b,0xe1,0x88,0x70,0xba,0x73,0xa9,0xe8,0xc6,0xb3,0x02,0x45,0x06,0x47,0x81,0x7b,0x9f,0xae,0x0f,0x58,0xeb,0xd1,0x2e,0x05,0xfa,0x52,0x52,0xbb,0xe1,0x22,0xc5,0xf9,0x26,0xe7,0x43,0x81,0x73,0x67,0x01,0x2a,0x92,0x1e,0xc3,0xae,0x96,0xc8,0xef,0x11,0x12,0x2d,0x57,0xcb,0xb9,0x4d,0xda,0xbc,0x66,0x02,0xee,0x24,0x41,0xc6,0x4b,0xb3,0xcb,0xc1,0xc6,0x63,0x62,0x36,0xb1,0x6e,0x99,0x15,0x31,0x9d,0x6c,0x9a,0x61,0x0f,0x2d,0x57,0xfd,0xb6,0x0a,0xe1,0x01,0x1a,0x3d,0x67,0xec,0xe2,0xaf,0xbb,0x53,0x99,0xd3,0x51,0xa1,0x30,0x1c,0x00,0x26,0x23,0x53,0x4e,0xf9,0x3a,0x4a,0xcd,0xa7,0x40,0x0d,0x68,0xf1,0x95,0xea,0x05,0xfe,0x42,0xa1,0xb6,0xa5,0x28,0x16,0x2f,0x34,0xd2,0x53,0x4a,0xed,0x15,0xce,0xa7,0x01,0x0e,0x01,0x41,0xd4,0x9e,0xfe,0x54,0xe9,0xb7,0xcb,0x73,0xbe,0xea,0xe0,0xdd,0x7f,0x72,0xcc,0xe8,0x26,0x1b,0x51,0xe0,0x14,0xf3,0x4c,0xcd,0x4e,0x39,0xe1,0x88,0x67,0x4f,0x4c,0x41,0x0e,0xa7,0x66,0xe2,0x43,0x9f,0x19,0x00,0x6f,0xe2,0x7b,0x31,0x00,0xf0,0xc6,0x01,0x4c,0xbc,0x4c,0x16,0xd5,0x19,0xc9,0x79,0xf9,0xc9,0x2f,0x74,0x71,0x94,0x45,0x2b,0x79,0x97,0xa9,0xf5,0xab,0xb2,0xf4,0x34,0xdb,0x01,0x0c,0xa1,0x8b,0x5a,0x27,0x15,0xd1,0x41,0xf9,0xcf,0xa6,0x4a,0x29,0x6b,0x3e,0xb4,0xdc,0xcd,0x00,0xdc,0x21,0x66,0xd5,0x15,0x9d,0xbe,0xfc,0x16,0xb8,0x74,0x6d,0xfd,0xe2,0x62,0x33,0x5a,0xa9,0x4c,0xbc,0x67,0xfd,0x7e,0x92,0x38,0xbf,0x3c,0xff,0xe6,0x39,0x9c,0xcd,0x6d,0xfb,0xc8,0xff,0x8e,0x0b,0xb0,0x64,0x47,0x43,0xcd,0xc4,0x87,0xae,0x22,0x00,0xd7,0x66,0xd0,0x5b,0x89,0xae,0xc1,0x44,0x22,0xed,0x0d,0x3b,0xca,0xb4,0xed,0x8b,0xfb,0xed,0xd7,0x9d,0xab,0x78,0x7c,0x71,0x3b,0x28,0x48,0x87,0x7e,0x97,0x21,0x02,0xe4,0x7f,0xf2,0x26,0x83,0xc7,0xa8,0x32,0x32,0x6a,0x3e,0xa6,0xb0,0xda,0x9d,0x00,0xcb,0xa6,0xb3,0xca,0x92,0x9d,0xbc,0xe2,0x77,0xcc,0x6c,0x41,0x8c,0x52,0x8e,0x23,0x99,0xa0,0x83,0xc6,0x00,0xaa,0x05,0x72,0xf5,0xe3,0x62,0x47,0xd9,0x78,0xfc,0xfc,0x84,0x04,0x05,0xf8,0xd4,0xb6,0xd3,0x31,0x61,0xc0,0x06,0x6a,0x55,0xf4,0x31,0x00,0xbc,0xa1,0x3a,0xf3,0xfc,0x38,0x11,0xfa,0x23,0x3d,0x1f,0x45,0xbb,0xfb,0x92,0x9b,0xf6,0x9e,0x62,0xc3,0x2d,0x84,0xd3,0xa4,0x8a,0x1b,0xcd,0x0e,0x8c,0x46,0x04,0x02,0x10,0xaf,0x2f,0xd3,0xbe,0x43,0xc9,0xfb,0xea,0xea,0x93,0x3a,0x0a,0x31,0x47,0x00,0xba,0x4b,0xcb,0xe4,0x7d,0xa0,0xe6,0x1c,0x5e,0x19,0xe1,0x74,0x00,0x00,0x00,0x71,0x5d,0x54,0x53,0xca,0x53,0x2b,0xb3,0x18,0x15,0x9e,0x01,0x20,0xd8,0x64,0xaa,0x20,0xde,0xfd,0x5b,0xb8,0xef,0x60,0xff,0x1b,0x68,0x38,0x19,0x57,0x48,0xdd,0x81,0x00,0xb6,0xe3,0x6c,0x50,0x1f,0x9f,0xbc,0xfe,0xdc,0x6f,0xb5,0x76,0x6c,0x08,0x8c,0x22,0xf2,0xc2,0x3d,0x07,0xf7,0xeb,0x43,0xeb,0xdb,0x47,0x0e,0x35,0x49,0x3e,0xbb,0xad,0xfd,0xc4,0x47,0xbd,0x4b,0x98,0x36,0x23,0x70,0x37,0x67,0x72,0x89,0x74,0xb6,0x00,0xb4,0xd5,0x59,0x6b,0xd4,0x28,0x68,0xee,0xf7,0xd3,0x3a,0x91,0x0c,0xc2,0x69,0xed,0x1e,0x5c,0x33,0xff,0x6e,0xc3,0xff,0x17,0xa3,0x85,0x68,0x7d,0x8b,0x3c,0x40,0x0a,0xe2,0x07,0x45,0x38,0xfa,0x11,0x06,0x5f,0x7a,0x81,0xa8,0xa0,0x0b,0x30,0xd9,0x00,0xb3,0xa0,0xbf,0x61,0x84,0x71,0x26,0x68,0x98,0x14,0x51,0x0f,0x35,0x60,0x2c,0x89,0x13,0xd5,0x5b,0xdc,0xeb,0x2d,0xf5,0xd4,0xeb,0x3e,0xc6,0xb4,0x21,0x13,0xec,0x21,0xe4,0x17,0xe9,0x5c,0xfc,0x4f,0xc9,0xec,0xc6,0xdd,0x7a,0x5d,0x3b,0xec,0xc9,0x00,0xb0,0xf6,0x2c,0x6a,0x8d,0x8c,0x7b,0x22,0x43,0x4e,0x30,0x38,0x9f,0x87,0xe0,0x8d,0x3a,0x87,0xc1,0x37,0x37,0x96,0x38,0xd4,0x15,0x49,0x1f,0x9f,0xd3,0x61,0xb9,0x96,0x5e,0xfb,0xa8,0x47,0x70,0x8a,0xcf,0xd6,0x25,0x88,0xd9,0xb6,0x07,0x65,0x2c,0x00,0xae,0x9e,0x74,0x57,0x7d,0x44,0xd8,0xa3,0xef,0xb7,0x12,0xf2,0xab,0xb0,0xcb,0x8e,0x9b,0x2b,0xfd,0x46,0xfd,0x8a,0x8e,0x91,0xbc,0xca,0x44,0xf2,0x4d,0x67,0x35,0x90,0x6e,0x55,0x7f,0x89,0xf3,0x76,0x91,0x48,0x00,0x79,0x33,0x21,0x55,0x3b,0x3f,0x00,0xac,0x2d,0xb0,0x09,0x81,0x12,0x45,0xf5,0x06,0x20,0x67,0xe2,0x00,0x00,0x00,0xe7,0x58,0xa4,0xe8,0x57,0x9d,0x25,0xab,0x9f,0xd4,0x11,0xe7,0x54,0xb1,0x66,0x8f,0x02,0x18,0x9b,0x9a,0xa6,0xd0,0x54,0x3b,0x6c,0x93,0xbc,0x87,0x14,0x3b,0x89,0xe8,0x00,0xa4,0xa3,0x67,0xf7,0x3c,0x58,0xcd,0xa1,0x5c,0xc5,0xaa,0xb1,0xac,0xec,0x65,0x3e,0x19,0xb2,0x29,0x55,0x5c,0xb5,0xe1,0x91,0xfc,0x64,0x33,0x86,0x32,0xa5,0x31,0x3b,0x78,0xd8,0x1b,0x36,0x46,0xb4,0x9b,0xf6,0xa1,0xa9,0xf5,0x6a,0xcf,0xdb,0x34,0x00,0x9f,0x54,0x94,0x5e,0xae,0x3b,0x38,0x7f,0x20,0x6a,0xbd,0xee,0xc6,0xb5,0x63,0xa9,0x16,0xc4,0x94,0x32,0x31,0x39,0x42,0x25,0x41,0x44,0x54,0x2b,0x8f,0x63,0x3c,0x23,0x34,0xfc,0xa6,0xc5,0x5e,0xfc,0xb0,0xde,0x02,0x88,0x81,0x2d,0x84,0xfa,0x46,0x00,0x99,0xb1,0x79,0x25,0x71,0x7a,0x7a,0x49,0x5f,0x76,0xd0,0x0f,0x71,0x1d,0x08,0x47,0x5d,0x1d,0x8c,0x01,0x03,0xf1,0xd6,0xe5,0xf1,0x4f,0x36,0x07,0x4e,0x1c,0xe8,0xb4,0x78,0x8a,0x36,0x94,0x55,0x5c,0x4c,0x42,0x86,0xf7,0x99,0xc9,0xd5,0x7e,0x7a,0x00,0x98,0xbe,0xd7,0x74,0x53,0x7d,0x87,0x78,0x3b,0xde,0x22,0x08,0x47,0x41,0xee,0xa1,0xb3,0xb1,0xdf,0xd2,0x5a,0xc4,0x6a,0xd5,0x1b,0x9c,0x8d,0x3d,0xe9,0x56,0x3c,0x12,0x85,0xed,0x7f,0x7e,0xc5,0x50,0x0c,0x9f,0x22,0x16,0x68,0x8d,0xa0,0xaa,0xdf,0x00,0x97,0x9d,0x2d,0xf1,0xa1,0x10,0xf8,0xc5,0x3c,0x1e,0xd6,0x9f,0x8f,0x27,0x20,0xae,0x7a,0xc6,0x39,0x90,0xda,0xaa,0xf2,0xa6,0x9b,0xf1,0x1c,0x91,0x3b,0x92,0x88,0x44,0xbf,0x50,0x12,0x35,0x54,0x56,0xf2,0xf1,0x64,0x16,0x64,0x64,0x02,0x4b,0x29,0x00,0x96,0x53,0xfc,0x6d,0x4c,0xb5,0xf2,0x95,0x92,0x3b,0x91,0xf0,0x76,0xa1,0x97,0x29,0x94,0xd3,0x30,0x02,0x2a,0x05,0x2d,0xf8,0x3e,0x10,0xfc,0xe1,0xb3,0xe1,0x40,0x49,0x6c,0xdc,0xd7,0xe0,0xc0,0xf2,0xff,0x6d,0xe2,0x67,0x02,0x91,0xb8,0x80,0x11,0x00,0x96,0x28,0x6e,0x78,0x34,0x32,0x75,0x53,0x8f,0xd8,0x03,0xeb,0x18,0x97,0xad,0x1b,0x2f,0x4c,0x31,0xaf,0xbe,0x72,0x69,0x40,0x42,0x3c,0x27,0xa5,0x79,0x13,0xa8,0xff,0xc5,0xb6,0xd6,0x38,0xa3,0x4c,0x93,0xea,0xd5,0x37,0xe3,0x41,0x0d,0x87,0x38,0x00,0x94,0x95,0x89,0x53,0xdb,0x51,0x86,0xde,0x98,0x64,0x3c,0xa1,0x57,0xc2,0xbf,0xcb,0x5e,0x4f,0xff,0xe0,0x0b,0xfd,0x72,0x49,0x5c,0xa5,0xea,0x50,0x06,0x3b,0x72,0x45,0xae,0x53,0x36,0x8d,0xc9,0x78,0xdb,0x52,0x85,0x39,0x6e,0xcf,0xcd,0xc3,0xe3,0x00,0x90,0xce,0x01,0x0d,0x30,0x61,0x2c,0x8d,0x15,0x2e,0xba,0xf3,0xe9,0x64,0x16,0x5c,0x2f,0xbb,0x14,0x8e,0x00,0x6a,0x8e,0x8b,0xa7,0xa7,0x5d,0xd8,0x6c,0x9f,0xe0,0x0c,0x83,0xf5,0xff,0xdb,0xfd,0x76,0xea,0xa0,0x95,0x31,0x07,0x14,0x36,0xb6,0xaf,0x00,0x90,0xa5,0x82,0xca,0xad,0x48,0x65,0xa8,0x39,0xf7,0xda,0x2a,0x53,0x50,0x95,0x85,0x0b,0x1a,0x2d,0x62,0xc5,0x95,0x24,0x5a,0xc3,0xef,0x0c,0x27,0xf3,0x13,0x79,0xc5,0x95,0x34,0x45,0x03,0xf8,0xc0,0xfc,0xe2,0x9e,0x5a,0x6f,0xe4,0x3a,0xed,0xf3,0x00,0x8f,0x3a,0x01,0x07,0xdc,0xf1,0xf8,0x93,0x6b,0x9d,0x09,0x1b,0xe6,0xed,0x39,0x3f,0xe8,0x0b,0x4b,0xc8,0x42,0xe8,0x2c,0x1c,0x18,0xab,0xfe,0xec,0x47,0xea,0x98,0x9e,0x63,0x95,0x3b,0xc8,0x2a,0xc4,0x11,0xf3,0x04,0xd1,0x38,0x33,0xd5,0x2a,0x56,0x00,0x83,0x2f,0x69,0x2e,0x66,0xcf,0x6e,0xfc,0xff,0xe8,0x83,0xa2,0x76,0x02,0xa6,0x80,0xdb,0xd8,0x35,0x94,0xc2,0xb9,0x0c,0xac,0x25,0xeb,0x23,0x49,0x3f,0xe0,0x78,0x47,0xdf,0x92,0x63,0x45,0x11,0x6c,0x7d,0xde,0x4e,0xbf,0x7e,0x8d,0xba,0x23,0xac,0x00,0x82,0x3c,0x88,0x24,0x46,0x35,0x9a,0x32,0x78,0xc2,0xc9,0x0a,0xc2,0xbf,0xce,0x37,0x15,0x76,0x4c,0xdb,0xd9,0x72,0x01,0x78,0x02,0xae,0xd9,0x5a,0x5d,0xa4,0xa9,0x73,0x98,0x98,0xea,0x6b,0xc6,0xac,0x29,0xdb,0x5a,0x5c,0xf4,0xa3,0xf6,0x2f,0x09,0x00,0x7f,0x76,0xad,0xc4,0x4a,0x17,0x11,0xb9,0x30,0x7e,0x6b,0xea,0x7d,0xc5,0x69,0xca,0xeb,0x85,0xe7,0x78,0x56,0x38,0x02,0x2f,0x78,0x8c,0x08,0xb9,0x93,0xff,0x8e,0x3a,0xe5,0x25,0x37,0xa4,0x26,0xbf,0x1a,0x1b,0x5a,0x8e,0xa9,0xb6,0xf7,0xfe,0x4b,0x00,0x7b,0xa7,0xea,0x57,0xd7,0x72,0x24,0x38,0x05,0x6c,0xd2,0x70,0xaf,0x66,0x6b,0x0e,0x9a,0x12,0xa1,0x93,0x21,0x40,0x30,0xae,0x79,0xc4,0xa9,0x62,0xf9,0xc3,0xa3,0xc7,0xfb,0xc7,0x19,0x0e,0x45,0xcc,0x4f,0xeb,0x4f,0xe2,0x16,0xb9,0x15,0x5b,0xe1,0x00,0x79,0x6c,0x3a,0xfe,0xdc,0x30,0xf1,0x5b,0x1c,0xaa,0xaa,0x5e,0x61,0xe2,0xa5,0xbe,0x35,0x02,0x98,0xfc,0xf7,0x19,0xca,0x39,0x3b,0x33,0x87,0x36,0xc5,0xb7,0x19,0x3d,0xf0,0xad,0x67,0xe8,0x6a,0x79,0x04,0x5f,0xdb,0x79,0x52,0xdc,0xc5,0xb7,0xc0,0x00,0x78,0x16,0xa6,0xf0,0x28,0xc6,0xfa,0x3c,0xe1,0x56,0x1e,0xaa,0x77,0x00,0x99,0x31,0x37,0x08,0xc8,0xce,0x96,0x83,0x63,0x74,0xf1,0x1e,0xa0,0xb0,0x41,0x81,0x36,0x7b,0xdd,0x51,0x84,0x0f,0x53,0xe2,0xf6,0x8c,0x38,0xa9,0x3c,0x6c,0xff,0x77,0x28,0x00,0x76,0xe9,0xc7,0x4d,0x79,0x62,0xc6,0x1c,0x94,0xb7,0x26,0xe4,0x98,0x6d,0x93,0x19,0x36,0xd9,0x81,0xd1,0x57,0xd7,0xcc,0x63,0x9f,0x21,0x89,0x2b,0x24,0x2c,0x21,0xc0,0x4f,0x0c,0xe6,0x61,0xe8,0x86,0xe7,0x5a,0xcb,0xea,0x16,0x87,0x6c,0x62,0x62,0x00,0x76,0xe2,0x05,0x8a,0x72,0x25,0x34,0xa6,0xb6,0x0c,0x21,0x91,0xf9,0x16,0xa8,0x56,0xb2,0x66,0x3e,0x14,0x2d,0xc3,0xc7,0x54,0x2f,0xf3,0x95,0xcb,0xe1,0x31,0xfb,0xde,0x83,0xda,0x45,0xda,0xae,0x8c,0x1f,0xce,0x5c,0x92,0xcc,0x6d,0x72,0xb1,0x02,0x00,0x73,0x29,0x13,0x24,0x04,0xd7,0xe1,0xd1,0xd8,0x60,0xa5,0xa9,0x51,0x9f,0x52,0x11,0x61,0x9a,0xf2,0xf5,0x36,0xe8,0xf7,0xba,0x6c,0x2c,0xf0,0xac,0x27,0x18,0x41,0x58,0x9a,0x0a,0x20,0xde,0xcb,0x31,0x2a,0xf6,0xe4,0xf2,0x5f,0xdc,0xc8,0xce,0x89,0x00,0x72,0x7a,0xa9,0xd0,0x59,0x34,0x2c,0x33,0xcf,0xae,0x6f,0x35,0x52,0x1f,0x0b,0xd0,0xb2,0xf1,0x49,0xa1,0x38,0x65,0xa9,0xf3,0x28,0xa3,0x93,0x35,0xad,0x8a,0xd7,0xe0,0x4c,0xe1,0x49,0x25,0x8c,0x76,0x7d,0xa2,0x1c,0x5d,0xa1,0x16,0x10,0x28,0x99,0x00,0x71,0xb0,0x78,0xac,0x04,0xa0,0x7a,0xff,0x87,0x6f,0x49,0x23,0x61,0x70,0x90,0x5d,0xd2,0x5a,0x16,0xa4,0xf2,0x84,0x1e,0x6c,0x71,0xbb,0x00,0x10,0x9b,0xb5,0x1c,0xfa,0x98,0xf5,0x42,0x3b,0xa7,0xf1,0xab,0xc3,0xa5,0xc8,0x44,0xc9,0x81,0xc3,0xae,0x00,0x6d,0x10,0x93,0x5c,0x20,0xe8,0x74,0x0b,0x05,0x52,0xd4,0x33,0x1c,0x8d,0x40,0x83,0xb0,0xd7,0x06,0x39,0x24,0x32,0xa9,0xbc,0x8f,0x84,0x41,0x3b,0xee,0x8b,0xda,0x09,0xea,0x0f,0x97,0xf4,0xa4,0xce,0xd0,0x80,0xd2,0xa5,0x31,0x17,0x50,0xbe,0x3b,0x00,0x6c,0xec,0xe5,0x24,0x3d,0x7e,0x36,0x0f,0x44,0x82,0xcd,0x51,0xc3,0x4e,0x2d,0x55,0x94,0x87,0x62,0x2b,0xea,0xcd,0x53,0x26,0x97,0x20,0xf2,0xbf,0x1c,0xe9,0x24,0xc5,0xe5,0x6b,0x05,0x37,0xc3,0x5b,0x4d,0x47,0xaf,0xdc,0xc4,0x71,0x8b,0xf6,0x45,0x00,0x6c,0x75,0x37,0xad,0xe5,0xb0,0xaa,0x93,0xad,0xd6,0x2e,0xf6,0xf7,0x54,0x90,0x49,0x62,0x79,0xe9,0x74,0x75,0x94,0x75,0x20,0x20,0xf7,0xc7,0x29,0x46,0xe5,0x21,0xc6,0xb6,0xb8,0x65,0xae,0x30,0x6d,0x26,0x52,0xdd,0x99,0x03,0x1b,0xba,0xde,0x12,0x00,0x6c,0x66,0xe4,0x36,0xe2,0xdc,0x29,0x62,0xbc,0x30,0x8a,0x6c,0xef,0xdf,0x2a,0xd4,0xbb,0xfa,0x50,0x64,0x9d,0x80,0xe5,0xf6,0x3f,0xc3,0x96,0xc6,0xf4,0xcf,0x63,0x21,0xca,0xbd,0x7c,0x14,0x80,0xe9,0x64,0xc2,0x70,0x1d,0x56,0xaa,0xfe,0xb5,0xe3,0x00,0x6a,0xeb,0x2c,0x33,0xb2,0x3f,0x59,0x82,0x28,0xf3,0x6b,0x3d,0x5e,0x78,0x16,0x47,0x79,0xd0,0x3e,0xbc,0xd2,0x4c,0x30,0xc9,0x3d,0x8e,0xd3,0x62,0xc1,0x75,0xcb,0xf2,0x22,0x16,0xf0,0xac,0x01,0x84,0x2f,0x80,0xe6,0xa4,0x26,0x70,0x6b,0x25,0x54,0x00,0x69,0xac,0x23,0xc7,0xc0,0x06,0x5c,0xbe,0x37,0x43,0x24,0xa0,0xbd,0x90,0x7f,0x39,0x1e,0xcb,0x3a,0x6f,0x7a,0x6b,0x1b,0x1a,0x63,0x3e,0x37,0xee,0x8d,0xd4,0xc7,0x44,0x0d,0xfe,0x20,0xab,0x71,0xc6,0x3f,0xe1,0x2d,0xa7,0xea,0x49,0xf7,0xb4,0x20,0x00,0x69,0x9b,0x34,0x4d,0x18,0xca,0xda,0x3f,0xe0,0xb8,0xfd,0x51,0xa8,0xae,0x12,0x22,0x98,0xfa,0xb7,0xc6,0x10,0x58,0xe7,0x7e,0xa5,0x54,0xcb,0x93,0xed,0xee,0xda,0x06,0x92,0xcb,0xfc,0xc5,0x40,0xab,0x21,0x3b,0x28,0x36,0xb2,0x90,0x29,0xe2,0x3a,0x00,0x68,0xaa,0x5f,0x1d,0x4e,0x98,0xbb,0xc9,0xae,0xc2,0x7e,0x67,0xcc,0xc0,0x5c,0x9c,0x99,0x53,0xc4,0x6c,0x86,0x33,0xfd,0xc0,0x99,0x04,0x16,0xef,0x6d,0xf2,0x0b,0x14,0x2c,0x6b,0x10,0x99,0x93,0x88,0xb6,0xcf,0x5a,0x49,0x3d,0x8f,0x3f,0xe3,0xd3,0x00,0x68,0x72,0xca,0x1e,0x5b,0x8d,0x6f,0x04,0xf1,0x8c,0x71,0x46,0xcc,0x2b,0x88,0x94,0x76,0x81,0x0a,0xd1,0x40,0x48,0x70,0xf1,0xb5,0xd7,0xf0,0xfa,0x0c,0x4f,0x94,0x03,0x4b,0x2d,0x99,0xd8,0x18,0x26,0x20,0x25,0xd6,0x7a,0x2a,0xb4,0x4d,0x48,0x85,0x00,0x66,0x7f,0x57,0x49,0x35,0xc3,0xd3,0x96,0xe4,0xf6,0x43,0x92,0xb9,0x5d,0xff,0x96,0xb8,0xd4,0x93,0xe2,0x48,0x86,0xf9,0xb5,0x29,0x19,0xc4,0x0d,0x16,0x9b,0x1b,0x91,0x4c,0xea,0xd7,0xd0,0x64,0xaf,0xba,0x91,0x62,0x64,0xc8,0x7a,0x30,0x5a,0x56,0x00,0x62,0x0d,0x6a,0xab,0xb6,0x75,0x54,0xf2,0x38,0x89,0x32,0x1e,0xa0,0x9d,0x35,0x36,0x9d,0x19,0xd3,0x7b,0x74,0x00,0xc8,0x3d,0x42,0xc0,0x6f,0x4a,0x03,0x5d,0x0e,0x95,0x17,0xad,0xe3,0x94,0x1f,0x4c,0xac,0x3e,0x6a,0x1b,0x98,0x7d,0xe4,0x36,0xdc,0x00,0x5e,0xfd,0xb8,0xec,0x8d,0x85,0x20,0xa4,0x03,0x70,0x57,0xd1,0x2e,0x65,0x9d,0x34,0x64,0xcf,0x12,0x7b,0xea,0xde,0x0f,0xab,0xd8,0x65,0x57,0x39,0x4e,0x7a,0x33,0x0c,0x90,0x06,0x1e,0x08,0x3e,0x8a,0x8e,0x8d,0x55,0x0c,0x70,0x58,0x70,0x29,0x47,0x00,0x5e,0xd7,0x7b,0xf1,0xac,0x37,0xa7,0xee,0x3f,0x30,0x38,0x96,0x27,0x98,0xc9,0xfd,0x16,0xb0,0xfe,0x01,0x02,0xf6,0x8c,0x2d,0x94,0x82,0x34,0x8a,0xe7,0x21,0x1e,0x3c,0xbf,0x86,0x68,0x13,0x64,0xe5,0x3d,0x87,0x93,0xa5,0xe5,0x51,0x16,0x7a,0x6c,0x00,0x5e,0x6f,0x46,0x12,0x42,0xee,0x12,0x45,0xdb,0xd3,0x64,0xd3,0x36,0xcc,0xa3,0xd9,0xc6,0x93,0xf8,0x67,0x64,0xe2,0x50,0x2e,0xcb,0x9c,0xa2,0x05,0x0e,0x7d,0xa7,0x1b,0xd1,0xb3,0x10,0xd0,0xf2,0xb5,0x35,0x09,0x83,0x13,0x08,0xde,0x2e,0x2f,0xf0,0x00,0x5d,0x17,0x47,0xb1,0xd2,0x74,0xcf,0x1a,0x8f,0x87,0x51,0x68,0x91,0x52,0x11,0xa1,0x3b,0xbe,0x92,0x8a,0xea,0xc7,0x9f,0xa8,0x48,0x3d,0x24,0x9b,0x8e,0x47,0xb4,0xb1,0xa2,0x2d,0xb5,0xaf,0xcb,0x69,0x3d,0xa7,0x2c,0x05,0x16,0x85,0x67,0xb8,0xc4,0x00,0x5b,0x21,0x81,0xe4,0x19,0xb4,0xd5,0x18,0xa3,0x3a,0xa0,0x27,0x7c,0x2a,0x68,0xbd,0x62,0x67,0xd6,0xec,0xd8,0x03,0x83,0x27,0xd2,0xbc,0xc0,0x85,0x0b,0xdf,0x8f,0x56,0xec,0x04,0x14,0x91,0x22,0x07,0xe8,0x1b,0xcf,0x90,0xdf,0xac,0x8a,0x4a,0xaa,0x00,0x59,0x8b,0x16,0xc0,0xe4,0x5f,0xa1,0xa2,0xe9,0x86,0x45,0x16,0x2e,0xe2,0x4c,0xb4,0x15,0xe3,0xf6,0x98,0x28,0xdc,0x41,0xb0,0xd9,0xc4,0x7d,0x27,0x0f,0x5c,0x30,0xe9,0xd2,0x75,0x1d,0x8d,0x88,0x9d,0x9c,0xfc,0x87,0xc7,0x66,0x18,0x4b,0x93,0x67,0x00,0x59,0x77,0xd4,0x03,0x57,0x4f,0xe4,0xba,0xd5,0x8a,0x60,0x70,0x59,0x60,0xad,0xeb,0x48,0x3d,0x97,0xdc,0x09,0x71,0x5a,0xa6,0x4c,0x05,0x45,0x39,0x0f,0x9f,0x56,0x18,0x88,0x57,0xba,0x63,0x5e,0xa4,0xe7,0x03,0x50,0x17,0xd7,0x7f,0x23,0xc2,0x59,0x00,0x52,0x2b,0xcd,0x26,0x8f,0xb6,0x9c,0x70,0xce,0x95,0xfa,0x70,0x10,0xbe,0x9e,0x75,0x52,0xb3,0x3f,0x87,0xb8,0x64,0xa6,0xeb,0x2b,0xbc,0x9a,0x06,0x75,0x15,0x20,0x85,0x78,0x4b,0x19,0xe2,0xc7,0xbd,0x19,0x18,0xc9,0xae,0x84,0xfa,0x09,0xe6,0x67,0x00,0x50,0xc9,0x25,0xce,0xbe,0xa3,0xdc,0x09,0xa7,0x82,0xa5,0x99,0x69,0x1f,0x40,0xd1,0xda,0x19,0xd6,0xa2,0xbd,0x39,0x8a,0xc0,0xbd,0xcc,0x09,0xe1,0xf8,0x94,0x98,0xb3,0x4e,0xb7,0x11,0x5e,0x5c,0x56,0x37,0x05,0xc1,0x79,0x48,0xf0,0xf7,0x2f,0x47,0x00,0x47,0xb2,0x0f,0xfc,0x80,0xc5,0xc1,0xbb,0x13,0x12,0xfc,0xd6,0x2d,0x7f,0x80,0x4e,0x13,0x60,0x62,0xb2,0xad,0x34,0xcb,0xd6,0x4f,0xf0,0x0e,0x8d,0xd1,0xd1,0xfe,0x1a,0x08,0x1e,0x4f,0x03,0xa4,0xb2,0xbe,0xdd,0xfc,0xa8,0xd8,0x42,0xdd,0x21,0x51,0x00,0x47,0x02,0xd6,0xbe,0xf8,0xaf,0x1f,0xe0,0x19,0x6e,0xe2,0xb4,0xf1,0x58,0x52,0x43,0x2e,0xde,0x67,0x46,0x83,0xac,0x10,0xe1,0xe8,0xe9,0xbd,0xe0,0xaf,0x04,0x40,0x24,0xff,0x57,0x0d,0x6f,0x65,0x75,0xa9,0x00,0x6b,0x1a,0x88,0xeb,0x1f,0x6e,0x35,0x00,0x44,0x63,0xc6,0xea,0x02,0x31,0x28,0x9d,0x47,0x35,0x77,0x8f,0x80,0xb3,0x8a,0x25,0x14,0x45,0x2a,0x98,0xab,0x17,0xdb,0xa6,0x62,0xb0,0xd6,0x0c,0xbb,0x27,0xf8,0xab,0x02,0x7f,0x2d,0x78,0x61,0xa1,0x8c,0x78,0x7b,0x74,0x99,0x82,0xab,0x00,0x58,0x00,0x3d,0x93,0x34,0x22,0x65,0x9c,0xde,0x6e,0x3d,0xd2,0x53,0x5a,0x24,0x12,0x2c,0x2b,0x16,0x47,0x93,0xc3,0x46,0x16,0x2b,0x66,0x73,0x37,0xed,0xed,0x22,0x88,0xa4,0x63,0xd7,0x8a,0x4a,0xfb,0xf3,0xb3,0x78,0xc3,0xe4,0x84,0xd8,0x91,0x55,0x84,0xba,0x00,0x3c,0xf2,0xc6,0x1c,0x94,0xc8,0x84,0x78,0xd1,0x03,0x1d,0x8c,0xd6,0xb4,0xc0,0xd6,0x17,0xbf,0x84,0x2d,0x49,0xc8,0x56,0xbe,0xe0,0x65,0x7e,0x10,0xf3,0x64,0xb4,0x84,0xdd,0xef,0x86,0xa8,0x2d,0xa1,0x7d,0xbc,0xda,0x8d,0x2b,0xde,0x07,0x97,0xa9,0x00,0x39,0xcc,0x0e,0x7b,0x06,0x8e,0x9c,0xf6,0x29,0x5f,0x0e,0x67,0xbe,0x0e,0x00,0x31,0x43,0xad,0xb5,0x6b,0x4e,0x8b,0xbe,0x52,0x1c,0x77,0x60,0xba,0x04,0xfb,0x54,0x27,0x38,0xcb,0x92,0xcd,0xb7,0xf2,0xac,0x95,0x8c,0x45,0x8b,0x90,0x22,0x90,0xd5,0x00,0x38,0x61,0x2a,0x9e,0x6b,0xa4,0xaa,0xf5,0x75,0x91,0x15,0x31,0x7e,0x5b,0x1e,0x37,0x6a,0x92,0x74,0xa2,0x58,0x63,0xe6,0x88,0x26,0x54,0x58,0xf9,0x53,0x8b,0x87,0x69,0x8b,0x56,0x6d,0xd1,0xff,0x0c,0x34,0x36,0xa5,0x76,0xd2,0x0d,0xae,0x70,0xbe,0x00,0x36,0x0b,0x95,0x36,0x1a,0x49,0x0b,0xcb,0x29,0x3e,0x6e,0x1e,0xe8,0xcd,0x55,0xb8,0x9b,0x61,0x8f,0x18,0x44,0x89,0xea,0x3e,0x17,0xd5,0x74,0x60,0x14,0x57,0x7d,0xdc,0x29,0x7a,0x8e,0x59,0x7f,0x15,0x82,0x6c,0xc3,0x60,0x10,0xf6,0x1d,0x80,0xaa,0x00,0x34,0xf5,0xba,0xef,0x36,0x84,0xb9,0xff,0x38,0xe7,0xe0,0xc3,0x8d,0x36,0x24,0xcf,0x2a,0x09,0x9b,0xea,0x10,0xb6,0x74,0x2a,0x02,0x2e,0x23,0x31,0x2c,0xbc,0x29,0x88,0x7e,0xa8,0x51,0xdd,0xd4,0xe9,0x5b,0xe0,0x1f,0x99,0x54,0x3b,0x85,0x19,0x69,0x00,0x33,0x9c,0xae,0xfc,0x10,0x3a,0xc4,0x97,0x6a,0x49,0x23,0xeb,0x75,0xd6,0x54,0xe3,0x15,0xb4,0x61,0x76,0xf6,0xd3,0xc6,0x25,0x5a,0xb2,0x22,0xbe,0xa7,0x30,0x5b,0x6c,0xd8,0x48,0xd3,0xb9,0xf0,0xa5,0x9f,0x51,0x33,0x2d,0x5d,0x70,0x62,0x98,0x68,0x00,0x33,0x8d,0x93,0x0b,0xe7,0xba,0x69,0x4e,0x87,0x28,0x97,0x84,0x1b,0xb9,0x6d,0xf1,0x1a,0x22,0xa0,0x34,0x0c,0x79,0x31,0xc6,0xc6,0x28,0x82,0x80,0xa0,0xf6,0xac,0xf8,0xf0,0x52,0xbe,0xd2,0xc9,0x29,0x49,0x38,0x83,0x38,0x8b,0x17,0x76,0xad,0xa2,0x00,0x30,0x5c,0xef,0x07,0xeb,0xe2,0x43,0x07,0x18,0x10,0x19,0x46,0x63,0x0a,0xae,0x52,0x08,0x4c,0xba,0x17,0x27,0xb0,0xd0,0xe2,0x3f,0x7a,0xea,0xb2,0x32,0x50,0x2e,0x4d,0x6b,0x9c,0x9c,0x13,0xf6,0x58,0x5e,0xcd,0xc0,0xd8,0xb5,0x6a,0xa9,0x8f,0xb7,0x00,0x2f,0x73,0x40,0xdf,0xff,0x14,0x0f,0x97,0x1f,0xce,0x38,0x14,0x9a,0x0f,0xb5,0x44,0xa6,0x9e,0x68,0x3a,0xce,0xc6,0x8e,0x22,0xe6,0x1b,0x5d,0xe7,0x66,0x2e,0x87,0x33,0xde,0x50,0x05,0x56,0x2e,0x2d,0x37,0x23,0x35,0x7f,0xae,0xfa,0x20,0x36,0xec,0x00,0x2e,0xe1,0xbf,0x61,0xf2,0x7a,0x98,0xed,0x24,0xb4,0xd1,0x31,0xc8,0xdf,0xb7,0xbb,0x08,0xf4,0xa8,0x9e,0x6b,0x11,0x5e,0x52,0xb7,0x66,0x29,0xe8,0x9b,0xf5,0xe4,0xac,0xdb,0x63,0x77,0x3f,0xfb,0x25,0x68,0x32,0xa2,0xfd,0xd3,0x0a,0xd7,0xbd,0xe0,0x00,0x2d,0x77,0xa3,0x7f,0xbf,0x11,0xf7,0xf0,0x11,0x9f,0x4d,0xd2,0xb3,0x28,0x53,0xcd,0xf8,0x51,0xd5,0xff,0x37,0xff,0xac,0x8b,0xd6,0x55,0x88,0x95,0x2e,0x4e,0x0e,0xb2,0x3b,0xeb,0x8a,0x95,0x62,0x41,0xcf,0x33,0x69,0x3a,0x4f,0xaa,0xe7,0x19,0x16,0x00,0x29,0x65,0xd0,0x7a,0x8e,0xc9,0x11,0xec,0xdd,0xcc,0xe7,0x54,0xf6,0xfd,0xed,0x11,0x62,0x1d,0x78,0x1d,0x66,0x20,0xf0,0x7e,0x7a,0x0b,0x28,0xd7,0x3f,0xd7,0x44,0x97,0x86,0xd8,0x07,0x3b,0xa9,0xe2,0x71,0x10,0xa4,0x21,0xbe,0x06,0x64,0xfd,0x4f,0x00,0x27,0xda,0x9c,0xbc,0x08,0xb9,0x55,0x6d,0x33,0xa5,0x1d,0x1d,0xf5,0x7b,0x0f,0x57,0x48,0x32,0x6d,0xce,0x23,0x93,0x51,0xa5,0x95,0xfc,0x4c,0xff,0xf0,0x90,0xa1,0xa9,0x5b,0x21,0x69,0x02,0x85,0xc2,0x58,0xed,0xbe,0x62,0x9e,0xfc,0x0c,0x10,0x47,0x00,0x27,0x96,0x3e,0x95,0xc5,0xa4,0x71,0x2c,0x31,0xf2,0x77,0x67,0xdb,0xf0,0x00,0xb2,0x49,0x26,0xac,0x68,0x77,0x52,0x82,0x61,0x3f,0x79,0xcc,0xb3,0xa5,0xc5,0x4b,0xef,0x5e,0x4e,0x94,0x67,0xab,0x1f,0xdb,0xb6,0x09,0x8d,0x8d,0x3a,0x84,0x50,0xa5,0x00,0x24,0x9a,0xd2,0x78,0x01,0xca,0x1c,0xe2,0x23,0xad,0xfa,0x53,0x44,0xcf,0x9d,0x13,0x60,0xde,0xdb,0xea,0xc1,0xc6,0x29,0x4b,0xe2,0x60,0xd0,0xbc,0x75,0x8e,0x1b,0x2e,0x34,0xd1,0x7c,0x4c,0x24,0xff,0xd5,0x33,0x8e,0x33,0x4a,0xcf,0x03,0xa2,0x23,0x00,0x23,0x18,0xca,0x69,0xea,0xa6,0xa2,0x94,0xf3,0xf3,0x0a,0xcf,0x2f,0x56,0x08,0x52,0x47,0xfa,0xda,0x0a,0xe9,0x6b,0xeb,0xfa,0xdb,0xc2,0x71,0x5c,0xa6,0x9d,0x5c,0x05,0xf7,0xda,0x1f,0x91,0xd0,0xf8,0x11,0x92,0xf4,0x0f,0xdf,0xb6,0xe3,0x33,0x00,0x00,0x21,0x1b,0xfb,0x72,0x5f,0x43,0xcf,0xc1,0x81,0x3f,0x82,0x18,0x64,0x66,0xf5,0x73,0xbc,0xbc,0x90,0xe5,0x11,0x3e,0xde,0xbe,0xfe,0x5f,0x9d,0xda,0x2f,0x56,0xc1,0xc9,0xdb,0x65,0x3b,0xe5,0xcd,0x3a,0x0f,0x21,0xda,0xff,0x0b,0x4b,0x2c,0x12,0x69,0x00,0x20,0x4b,0x54,0x50,0x4e,0x01,0xfe,0x06,0xd6,0xde,0xdf,0xb5,0x70,0x00,0x00,0xc9,0x46,0xe7,0x37,0xa0,0xec,0xce,0x04,0xb8,0x82,0x74,0x4b,0xc4,0xbf,0xb0,0x88,0x89,0x5a,0x7d,0x7f,0xe6,0x80,0x16,0xa6,0x84,0xe2,0xcc,0xaa,0x68,0x68,0x3a,0x59,0x00,0x1f,0x93,0xbb,0x86,0x4c,0xef,0x8c,0x25,0xfe,0x9f,0xd7,0x6a,0xb4,0xe7,0x4d,0x22,0xbd,0xe3,0x73,0x3d,0x93,0x88,0xfb,0x32,0x78,0xdc,0x5d,0xd9,0x0e,0x38,0xf4,0x7a,0xea,0x03,0x7c,0x61,0xb9,0xc3,0x85,0xc1,0x6e,0x41,0x1a,0x5f,0x3e,0xca,0x81,0x00,0x1e,0x7d,0x40,0x37,0xe0,0x45,0x0e,0xc0,0x80,0xc8,0x76,0x4d,0x86,0x25,0xbf,0x23,0x28,0xd9,0x1d,0x83,0x37,0x43,0xf4,0xbd,0x4b,0x49,0x1b,0x56,0xb1,0x70,0x70,0x25,0xca,0xd1,0x95,0xfa,0x7b,0x83,0xb5,0xda,0xea,0x13,0x24,0xbb,0x54,0x07,0x0e,0x00,0x1b,0xff,0xc1,0x77,0x49,0x19,0x95,0x98,0x9b,0x1f,0xc8,0x82,0x1a,0x1d,0x0b,0x02,0xc9,0x1a,0x10,0x4d,0xc3,0x19,0x3b,0xeb,0x7c,0xb8,0x59,0xe5,0x3f,0xe6,0x3e,0xb0,0xbd,0x79,0x13,0x8a,0x4b,0xb6,0x9f,0xc9,0x3f,0x9b,0x6c,0xf4,0xb2,0x20,0x00,0x00,0x1a,0xd0,0xae,0xa7,0x7d,0x0f,0x3e,0x8a,0xb2,0x9e,0xb7,0x04,0xb0,0x4d,0x5b,0xec,0xab,0x1c,0x2a,0xff,0x00,0x59,0xe7,0x9f,0xd7,0xb9,0xb3,0x3c,0x2e,0x2e,0xa0,0xfe,0x82,0x5e,0xa7,0x53,0xd1,0x21,0xcb,0xbe,0x3e,0x0a,0xb0,0x04,0xb7,0xf4,0x5c,0x00,0x1a,0x30,0x49,0xf8,0x87,0x2a,0x38,0x7c,0x59,0xc2,0x2a,0xa7,0xf9,0x9e,0x23,0x50,0x0f,0xdc,0xbd,0x7c,0x31,0x64,0xf6,0xd4,0xf0,0x75,0xda,0x9a,0xea,0xd6,0x01,0x34,0x51,0x0c,0xcf,0xa0,0xa1,0x0d,0xe6,0x92,0x60,0x07,0xed,0x4f,0xbc,0x96,0xf0,0x00,0x1a,0x04,0x1c,0x34,0xe7,0x76,0xe2,0xab,0x0b,0x2f,0x03,0x95,0x40,0x00,0x00,0xc9,0x47,0xe6,0x5a,0x7f,0x0b,0xc7,0xc0,0x64,0x7f,0x44,0x0b,0x1a,0xd0,0x30,0xfb,0x51,0x65,0x94,0xd3,0x9c,0x29,0x56,0xaa,0x02,0xf5,0xe0,0xc9,0x0e,0x0e,0x79,0x44,0x00,0x16,0xf5,0x9e,0xe3,0x37,0xe3,0x5e,0xff,0xf4,0x3c,0x4e,0x4b,0x00,0x00,0x00,0xda,0x88,0xa5,0x6d,0x80,0xac,0x6e,0x2d,0x44,0x3f,0xbc,0x34,0x9a,0xe5,0x7b,0x22,0xfd,0x7b,0xec,0x19,0xf0,0x02,0xa7,0xf0,0x20,0x66,0x71,0xf9,0xbb,0x9c,0x37,0xcf,0x00,0x16,0x4b,0x35,0xd6,0x32,0xfc,0x56,0x63,0x74,0x7a,0x98,0x7e,0xc6,0x22,0xe6,0xbf,0x16,0xb7,0x43,0x96,0xf6,0xb0,0xf2,0xa3,0x33,0xc1,0x17,0xce,0x03,0x55,0xb1,0x4e,0x46,0x15,0xde,0xf5,0xf9,0x98,0x81,0x93,0xd9,0x39,0x28,0xfd,0x24,0x4d,0x3d,0x00,0x16,0x35,0xf6,0xa3,0xdd,0xe7,0x5a,0x64,0x0f,0xe7,0x2b,0xeb,0xbd,0xc9,0x9e,0x9e,0x34,0x9a,0x6c,0xeb,0xb3,0xe5,0x58,0xbe,0xb7,0x98,0x3b,0x10,0xa2,0xa4,0xb4,0xf4,0x48,0xfc,0x1c,0x9b,0xe2,0x38,0xe2,0xd2,0x3f,0xa9,0x21,0x40,0x7f,0x25,0x6c,0x00,0x16,0x31,0xdb,0x59,0x5a,0xe7,0xe2,0x28,0xde,0x5b,0x1d,0xfc,0x00,0x00,0x00,0xd5,0x6b,0xaf,0x01,0xc6,0xd5,0xef,0x74,0x09,0xb7,0x28,0x3b,0x0d,0xe1,0xf0,0x04,0x10,0x1d,0x2c,0x05,0xb3,0x19,0x0c,0xb5,0x1e,0xf6,0x70,0x10,0xed,0xbd,0x83,0x84,0x00,0x15,0x4b,0xd5,0xfe,0x6c,0xd9,0x85,0xdf,0xe0,0xe8,0xf9,0x31,0x01,0xe0,0x00,0xb5,0xc1,0x7c,0x08,0x91,0x5b,0x51,0x1f,0x87,0x9c,0x89,0x01,0x57,0x11,0x84,0xfd,0x0f,0x43,0x11,0xff,0xe4,0x93,0x8b,0x40,0x6d,0x01,0x57,0x98,0x6d,0x36,0x69,0xda,0x00,0x15,0x28,0xee,0xb2,0xcd,0x4a,0x39,0x03,0xb4,0x88,0xc4,0x4a,0x08,0x00,0x00,0x69,0xf0,0xa3,0xb3,0x69,0xc2,0xd6,0x6d,0x1c,0xac,0x6a,0x40,0xab,0x56,0x1d,0xf1,0xba,0x6b,0x69,0xb1,0x5f,0x67,0xec,0x91,0xba,0x9f,0xf2,0x86,0xd9,0x62,0x42,0x54,0x00,0x13,0x60,0x6b,0x10,0x4b,0xe8,0x61,0xad,0xab,0xda,0x4d,0x98,0x5e,0x56,0x5d,0x51,0x14,0xaa,0xd8,0x6a,0x39,0x08,0x97,0xd2,0xa9,0x1b,0x33,0xb9,0x31,0xb3,0xa5,0x9a,0x7d,0xf9,0xe6,0x3e,0xb3,0x69,0x4f,0x94,0x30,0x12,0x2f,0x56,0x22,0xae,0x50,0x00,0x12,0xe6,0xe9,0xaa,0xab,0x8c,0xe3,0x5e,0xa9,0x9d,0x5f,0xaa,0xf1,0x03,0x73,0xbe,0xd9,0x07,0x28,0xbf,0xe3,0xba,0xf2,0x5a,0xe2,0x95,0x0e,0x96,0x27,0x9d,0x24,0x9e,0xfa,0xf1,0x80,0xac,0x63,0xf5,0x38,0x47,0xb6,0xae,0xe1,0x9d,0x4d,0xf4,0xe2,0x00,0x12,0x02,0x56,0x9e,0xf4,0xc7,0x68,0x21,0x7e,0xab,0x2b,0x29,0xf2,0x67,0x67,0x35,0x80,0x2f,0x00,0x1c,0xea,0x86,0xc5,0xeb,0x90,0xd3,0xb3,0xdd,0xaa,0xcf,0x9f,0x34,0x60,0xac,0xa1,0x52,0x33,0xc0,0x1a,0x9f,0x9e,0x8a,0x81,0x2a,0x9a,0x51,0xc4,0x00,0x11,0xa8,0xf0,0x03,0x1a,0x71,0x0f,0xff,0xed,0x01,0xcd,0x0c,0x95,0xa9,0x06,0x40,0xfb,0x73,0x80,0x25,0x0f,0x36,0x79,0x0b,0xf1,0x67,0x47,0xec,0x8d,0xd4,0x6b,0xe3,0x3f,0x69,0xaa,0xb6,0xf6,0x4a,0x1c,0x88,0x3d,0x5a,0x71,0x28,0xea,0xb8,0x0d,0x00,0x10,0xa1,0x67,0x11,0xb0,0xff,0xd5,0x55,0xee,0x39,0x93,0xa8,0x56,0xe8,0xce,0x97,0x5b,0x62,0xb8,0xe7,0xf8,0x82,0x67,0xae,0xa7,0x76,0x77,0x0b,0x72,0x93,0xac,0x63,0x6e,0x38,0x1f,0x7a,0xa6,0x96,0x76,0x96,0x90,0x89,0x28,0x5f,0xf3,0x14,0xb4,0x00,0x0e,0x91,0xeb,0xe2,0x48,0xe5,0xf4,0xd0,0x8c,0x93,0x7b,0x5c,0x85,0x2c,0xb5,0x50,0xa2,0x2d,0x0a,0xd7,0x31,0x39,0x91,0xc3,0x27,0xf4,0x8d,0x96,0x22,0x7e,0x4e,0x32,0x73,0xea,0x4f,0xe6,0x69,0x04,0xcb,0x36,0x50,0x27,0xdf,0xc5,0x64,0x36,0x73,0x00,0x0e,0x64,0x61,0x30,0x82,0x1b,0x54,0x2b,0x73,0xe6,0xd5,0xc1,0x57,0x65,0x84,0x54,0x78,0xc0,0x88,0x2c,0x19,0x2e,0xd8,0x9e,0x18,0xd3,0x43,0xf5,0x04,0x82,0x69,0x2b,0x1e,0x5e,0x94,0xdb,0x92,0x22,0x22,0x4c,0xee,0x8d,0x32,0xfe,0xbb,0x4e,0x4c,0x00,0x0e,0x5e,0xbc,0xad,0x1e,0x0b,0xed,0x62,0x44,0x6b,0x53,0xde,0x4a,0xa2,0x64,0x48,0x6d,0xba,0x47,0x72,0x68,0x42,0xd6,0x56,0x00,0xfe,0x14,0xf1,0x09,0xc2,0x4f,0xa9,0xf2,0x09,0xd0,0x9c,0xae,0x2e,0xa5,0xf2,0xbe,0x92,0x55,0xad,0x6a,0xb7,0x75,0x00,0x0d,0x71,0xcf,0xf2,0xc6,0x56,0xd3,0xd8,0xf2,0x42,0x67,0x1b,0xfc,0x49,0x1c,0x11,0xa2,0x0f,0x02,0x9f,0xe7,0x99,0x0c,0x6b,0xf0,0xf7,0x4d,0x6b,0x07,0x1f,0xbb,0x8a,0x84,0x51,0xaf,0x1d,0x0d,0x6e,0x0a,0x03,0x43,0x4f,0xc2,0xbc,0x41,0x26,0x4e,0x00,0x0d,0x1f,0x19,0xd1,0x64,0x1f,0x32,0xa8,0x27,0x66,0xdc,0x51,0x10,0x00,0x00,0x6a,0x46,0x78,0x7d,0xf9,0x41,0x29,0xce,0xa0,0x6d,0xda,0x4d,0x41,0x0f,0xcb,0xa1,0xbf,0x24,0xfe,0xdf,0xbb,0x66,0x4e,0xc6,0xc5,0xa1,0x1e,0x3c,0x8a,0xf8,0x2e,0xeb,0x00,0x0c,0xaa,0xb5,0xa3,0xb8,0x77,0x21,0x64,0xf2,0x0a,0xb9,0x2d,0x5d,0xc0,0x00,0x67,0x3d,0x29,0x36,0x81,0xe3,0x56,0x2a,0x39,0x8c,0x0b,0x4b,0x1b,0x18,0xab,0xdc,0xec,0xc9,0x0e,0x58,0x1d,0xd4,0xdc,0x5f,0x7e,0xac,0x07,0xbb,0xbe,0xcd,0x0c,0x95,0x00,0x0c,0x8a,0x43,0x56,0x33,0x05,0x00,0x7c,0x58,0x94,0x05,0x60,0x00,0x00,0x00,0xaa,0xf4,0xaa,0xfb,0x0a,0xc5,0xe1,0x13,0x57,0xdc,0xce,0x18,0x65,0x17,0xab,0xbc,0x77,0x6a,0xa9,0xee,0xd9,0x43,0x4b,0xdb,0xb0,0x60,0x6e,0x41,0x67,0x48,0x84,0x97,0x00,0x0c,0x2c,0x23,0x79,0x68,0x28,0x56,0x0d,0xf3,0x22,0x2c,0x7a,0x20,0x00,0x00,0x60,0xe6,0xf8,0xe0,0x01,0x7f,0x59,0xc8,0xce,0x54,0x47,0xc1,0xf1,0xe9,0x51,0xca,0xd3,0x02,0x66,0x1d,0xc4,0x0e,0x44,0xc4,0xec,0xea,0x2f,0x7f,0x83,0x5d,0x3e,0x7b,0x00,0x0b,0x92,0x3b,0xf6,0x2f,0x7d,0xc1,0xa6,0xed,0x0e,0x27,0xad,0x9c,0x0e,0x82,0xf3,0xdc,0x3f,0xf4,0xf6,0xf6,0xf9,0x06,0x61,0xf1,0x4a,0xce,0xd4,0xad,0x34,0x34,0xdf,0x72,0xf0,0x04,0xc0,0x65,0xa6,0x71,0x97,0x13,0xf1,0x22,0x12,0x6f,0x26,0xb1,0x00,0x0b,0x87,0xd7,0xa0,0xf6,0xe2,0xf5,0xdc,0x61,0xf0,0x84,0x28,0x2a,0x76,0x7e,0x04,0xfa,0x6e,0xfb,0x3a,0x0b,0xb4,0x61,0x64,0x85,0x19,0xde,0x11,0x31,0xf7,0x07,0x51,0x32,0xd4,0x87,0xfa,0x31,0xc3,0x3b,0x23,0xd9,0x46,0xda,0xde,0x18,0x01,0x51,0x00,0x0b,0x71,0x8e,0x8e,0xe1,0x86,0x2f,0xa7,0x11,0x4e,0x63,0x41,0x2f,0x70,0xf9,0x6b,0x6a,0x08,0x0a,0x77,0x70,0x37,0xc5,0x6b,0x98,0xcd,0x45,0x03,0x6b,0x88,0x02,0x23,0xe9,0xbe,0x05,0x91,0x6d,0xd3,0xf6,0x97,0x60,0xda,0x8c,0xa4,0xe6,0x89,0x4a,0x00,0x0a,0xdd,0x3a,0x4c,0x72,0x5e,0xf7,0x0e,0x40,0xe1,0x68,0x13,0x40,0x00,0x00,0xc7,0x67,0xe2,0xd2,0x6f,0xdb,0xeb,0xa0,0x53,0x47,0xfc,0x9e,0xb4,0xc7,0x98,0x59,0x4a,0xac,0x8f,0xbc,0x5e,0x0d,0x3c,0x97,0xee,0x32,0x13,0x89,0xd4,0x7f,0xfa,0x03,0x00,0x0a,0x5c,0x3a,0x57,0x47,0x11,0x4f,0x63,0x12,0x23,0xf0,0x95,0x98,0x93,0xbe,0x12,0x43,0xb4,0x27,0x5d,0x7c,0xff,0x63,0xe3,0x22,0x9c,0x7c,0x40,0xae,0xae,0x8c,0x53,0xd6,0xf3,0x23,0x3d,0x43,0x9a,0xf3,0x17,0x78,0x65,0x75,0x1e,0x98,0x85,0xf1,0x00,0x09,0xd5,0x92,0xfc,0x29,0xf1,0xc9,0x2f,0x86,0xe5,0xa4,0x58,0x4d,0x93,0x50,0x2d,0x54,0x85,0x03,0x12,0x2a,0x96,0x25,0x71,0x83,0x42,0x00,0x0b,0x53,0x92,0x4f,0x1b,0xb8,0xbd,0xca,0xab,0xe2,0x2e,0x1d,0x64,0xf0,0xb0,0x14,0x44,0xc0,0x2e,0x64,0x00,0x09,0xa1,0x3c,0xd6,0x2f,0x59,0xcb,0xdd,0x56,0x16,0x69,0x98,0x88,0x00,0x00,0x42,0xdd,0x30,0x8b,0xa9,0x1a,0xa2,0x25,0xb9,0xdd,0x0e,0xf1,0x5a,0x68,0xa8,0xdd,0x49,0xe2,0x94,0x0c,0x62,0x77,0xa4,0xbf,0xac,0x36,0x3e,0x1c,0x8b,0xf1,0x42,0x79,0x00,0x08,0x26,0x6f,0xd0,0xaf,0x6e,0x8b,0xeb,0x62,0x53,0xa2,0x95,0x1d,0x80,0x00,0x2b,0x99,0xe2,0x35,0x18,0x36,0x71,0xa4,0xf5,0xb1,0xea,0xac,0xb4,0xb8,0xa4,0x10,0x53,0x2d,0xf5,0xbd,0xca,0x1f,0xf4,0x7b,0x97,0x3f,0x71,0xd5,0x97,0x83,0x88,0x84,0x00,0x08,0x04,0x17,0xcc,0xb8,0x17,0xe9,0x5c,0x98,0x26,0x1d,0x8f,0x41,0x26,0x97,0x4f,0xc0,0xcd,0x2a,0xb6,0x1b,0x1c,0x52,0xa3,0xd9,0x2a,0x51,0x86,0x22,0x41,0xfd,0x7d,0xa9,0x1c,0x3a,0x3d,0xe0,0x23,0x5e,0x4c,0xd0,0xaf,0xe3,0x39,0xda,0xd7,0xde,0x00,0x07,0x08,0xd9,0x9b,0x49,0xd9,0xc4,0x23,0xcd,0x92,0x2b,0x68,0xc9,0x0b,0xae,0xe2,0xd0,0xea,0x3b,0x37,0x2f,0x99,0x2d,0x24,0x5c,0xf4,0x95,0xe5,0x8c,0xb3,0x25,0x8a,0x89,0xd9,0x01,0xd1,0x8d,0x25,0xe1,0xca,0xc9,0xde,0x56,0x7c,0x7d,0xb7,0xda,0x00,0x06,0xf1,0x5c,0xd8,0x8c,0xc9,0x9c,0x1e,0x6c,0xc7,0x90,0x96,0xd6,0x1b,0x41, 0x00};
	size_t nano_bootstrap_weights_live_size = sizeof(nano_bootstrap_weights_live) - 1;
}
